#ifndef TICTACTOE_MODEL_ESP32_H
#define TICTACTOE_MODEL_ESP32_H

/*
 Author: Mouli Sankaran 
 CAUTION: This is an auto generated file.
 DO NOT EDIT OR MAKE ANY CHANGES TO IT.
 This model data was generated on Sun Nov 10 16:17:12 2024

 Tools used:
 Python:3.10.12 (main, Sep 11 2024, 15:47:36) [GCC 11.4.0]
 Numpy:1.26.4
 TensorFlow:3.10.12 (main, Sep 11 2024, 15:47:36) [GCC 11.4.0]
 Keras: 3.4.1

 Model details are:*/

const int  NUM_OF_EPOCHS = 50;

const int  BATCH_SIZE    = 24;


const int DENSE1_SIZE = 24;
const int DENSE2_SIZE = 20;

const unsigned int TicTacToe_model_esp32_len = 7152;
alignas(8) const unsigned char TicTacToe_model_esp32[] = {
0x1c,0x00,0x00,0x00,0x54,0x46,0x4c,0x33,0x14,0x00,0x20,0x00,
0x1c,0x00,0x18,0x00,0x14,0x00,0x10,0x00,0x0c,0x00,0x00,0x00,
0x08,0x00,0x04,0x00,0x14,0x00,0x00,0x00,0x1c,0x00,0x00,0x00,
0x98,0x00,0x00,0x00,0xf0,0x00,0x00,0x00,0x28,0x15,0x00,0x00,
0x38,0x15,0x00,0x00,0x7c,0x1b,0x00,0x00,0x03,0x00,0x00,0x00,
0x01,0x00,0x00,0x00,0x10,0x00,0x00,0x00,0x00,0x00,0x0a,0x00,
0x10,0x00,0x0c,0x00,0x08,0x00,0x04,0x00,0x0a,0x00,0x00,0x00,
0x0c,0x00,0x00,0x00,0x1c,0x00,0x00,0x00,0x3c,0x00,0x00,0x00,
0x0f,0x00,0x00,0x00,0x73,0x65,0x72,0x76,0x69,0x6e,0x67,0x5f,
0x64,0x65,0x66,0x61,0x75,0x6c,0x74,0x00,0x01,0x00,0x00,0x00,
0x04,0x00,0x00,0x00,0x90,0xff,0xff,0xff,0x0c,0x00,0x00,0x00,
0x04,0x00,0x00,0x00,0x08,0x00,0x00,0x00,0x6f,0x75,0x74,0x70,
0x75,0x74,0x5f,0x30,0x00,0x00,0x00,0x00,0x01,0x00,0x00,0x00,
0x04,0x00,0x00,0x00,0xca,0xea,0xff,0xff,0x04,0x00,0x00,0x00,
0x0c,0x00,0x00,0x00,0x6b,0x65,0x72,0x61,0x73,0x5f,0x74,0x65,
0x6e,0x73,0x6f,0x72,0x00,0x00,0x00,0x00,0x02,0x00,0x00,0x00,
0x34,0x00,0x00,0x00,0x04,0x00,0x00,0x00,0xdc,0xff,0xff,0xff,
0x0f,0x00,0x00,0x00,0x04,0x00,0x00,0x00,0x13,0x00,0x00,0x00,
0x43,0x4f,0x4e,0x56,0x45,0x52,0x53,0x49,0x4f,0x4e,0x5f,0x4d,
0x45,0x54,0x41,0x44,0x41,0x54,0x41,0x00,0x08,0x00,0x0c,0x00,
0x08,0x00,0x04,0x00,0x08,0x00,0x00,0x00,0x0e,0x00,0x00,0x00,
0x04,0x00,0x00,0x00,0x13,0x00,0x00,0x00,0x6d,0x69,0x6e,0x5f,
0x72,0x75,0x6e,0x74,0x69,0x6d,0x65,0x5f,0x76,0x65,0x72,0x73,
0x69,0x6f,0x6e,0x00,0x10,0x00,0x00,0x00,0x34,0x14,0x00,0x00,
0x2c,0x14,0x00,0x00,0x7c,0x13,0x00,0x00,0xec,0x0b,0x00,0x00,
0xbc,0x01,0x00,0x00,0xa4,0x01,0x00,0x00,0x34,0x01,0x00,0x00,
0xd4,0x00,0x00,0x00,0xbc,0x00,0x00,0x00,0xb4,0x00,0x00,0x00,
0xac,0x00,0x00,0x00,0xa4,0x00,0x00,0x00,0x9c,0x00,0x00,0x00,
0x94,0x00,0x00,0x00,0x74,0x00,0x00,0x00,0x04,0x00,0x00,0x00,
0x86,0xeb,0xff,0xff,0x04,0x00,0x00,0x00,0x60,0x00,0x00,0x00,
0x0c,0x00,0x00,0x00,0x08,0x00,0x0e,0x00,0x08,0x00,0x04,0x00,
0x08,0x00,0x00,0x00,0x10,0x00,0x00,0x00,0x28,0x00,0x00,0x00,
0x00,0x00,0x06,0x00,0x08,0x00,0x04,0x00,0x06,0x00,0x00,0x00,
0x04,0x00,0x00,0x00,0x01,0x00,0x00,0x00,0xea,0x03,0x00,0x00,
0x0c,0x00,0x18,0x00,0x14,0x00,0x10,0x00,0x0c,0x00,0x04,0x00,
0x0c,0x00,0x00,0x00,0x81,0x43,0x08,0x0b,0xe3,0xf7,0xdb,0x22,
0x02,0x00,0x00,0x00,0x02,0x00,0x00,0x00,0x04,0x00,0x00,0x00,
0x06,0x00,0x00,0x00,0x32,0x2e,0x31,0x37,0x2e,0x30,0x00,0x00,
0xf2,0xeb,0xff,0xff,0x04,0x00,0x00,0x00,0x10,0x00,0x00,0x00,
0x31,0x2e,0x35,0x2e,0x30,0x00,0x00,0x00,0x00,0x00,0x00,0x00,
0x00,0x00,0x00,0x00,0x6c,0xe6,0xff,0xff,0x70,0xe6,0xff,0xff,
0x74,0xe6,0xff,0xff,0x78,0xe6,0xff,0xff,0x7c,0xe6,0xff,0xff,
0x22,0xec,0xff,0xff,0x04,0x00,0x00,0x00,0x08,0x00,0x00,0x00,
0xff,0xff,0xff,0xff,0x1b,0x00,0x00,0x00,0x36,0xec,0xff,0xff,
0x04,0x00,0x00,0x00,0x50,0x00,0x00,0x00,0xd3,0x52,0xf9,0x3b,
0x70,0xa5,0x13,0x3d,0x1e,0x4a,0x07,0x3e,0xd5,0xa9,0x63,0x3d,
0x7a,0x5e,0xed,0x3a,0x24,0xb9,0x1b,0x3d,0xd1,0xb3,0x8b,0x3d,
0x48,0x70,0x27,0x3d,0x8d,0xb4,0xa0,0x3d,0xdf,0x15,0xac,0x3d,
0xe6,0x03,0x6f,0xbc,0x38,0xe4,0x92,0x3d,0xc8,0x13,0xf2,0x3d,
0xee,0x07,0xca,0xbd,0xb9,0x6a,0x56,0x3d,0x35,0xef,0x2c,0x3d,
0xdf,0xa5,0x9e,0x3d,0x3a,0x4b,0xc1,0x3d,0xe4,0xc5,0x40,0x3c,
0xea,0xe1,0x8b,0x3a,0x92,0xec,0xff,0xff,0x04,0x00,0x00,0x00,
0x60,0x00,0x00,0x00,0xf7,0x3a,0xe7,0x3c,0x64,0xba,0x94,0xbd,
0x53,0x7d,0x0d,0x3d,0x5b,0x94,0xce,0x39,0x07,0x7f,0x5a,0x3d,
0x2a,0xc9,0x33,0xbd,0xcd,0x14,0xeb,0xbc,0x8c,0x78,0xea,0xbc,
0x87,0x26,0x0e,0xbd,0xaa,0x6b,0x41,0xbc,0xb6,0x66,0xab,0xbd,
0xcd,0xac,0x36,0x3d,0x7f,0x54,0x4a,0xbc,0x93,0x3f,0x89,0xbb,
0x90,0x75,0x09,0x3d,0xfd,0x55,0x4c,0xbc,0xda,0xa5,0xfc,0x3c,
0xc4,0x6e,0x09,0xbd,0xc5,0xe9,0x71,0x3c,0x8f,0x78,0x39,0xbd,
0xc1,0x13,0x6c,0xbc,0x9d,0x1c,0x85,0xbc,0xf0,0xa0,0x2a,0x3b,
0xe2,0xcd,0x56,0xbd,0xfe,0xec,0xff,0xff,0x04,0x00,0x00,0x00,
0x08,0x00,0x00,0x00,0xf5,0x8d,0x83,0xbb,0x10,0x8e,0x83,0x3b,
0x12,0xed,0xff,0xff,0x04,0x00,0x00,0x00,0x20,0x0a,0x00,0x00,
0x00,0xba,0x48,0xbd,0x45,0xf0,0x2d,0x3c,0x3e,0xe9,0x79,0xbd,
0x28,0xbb,0xfe,0xbc,0xd6,0x0d,0x8c,0x3c,0x5f,0xd2,0x93,0x3d,
0xd5,0x17,0x64,0x3e,0x88,0xec,0xe3,0xbe,0xfb,0x65,0xbf,0x3d,
0xf7,0xd2,0x32,0x3e,0x07,0x80,0x82,0x3e,0xb1,0xf5,0x52,0x3d,
0xcc,0x60,0xd2,0x3d,0xa7,0x80,0x0a,0xbf,0x2b,0x1b,0x14,0x3e,
0x0a,0xe6,0xe0,0xbd,0xb1,0xba,0x01,0xbe,0x80,0x9c,0x6b,0xbe,
0x29,0x6a,0xbe,0x3d,0x86,0xef,0xd6,0xbe,0x22,0x47,0x8f,0x3e,
0x7e,0xdb,0xc3,0xbd,0x7c,0x20,0x8e,0x3c,0x6e,0xc6,0x25,0x3e,
0xc6,0x27,0x16,0xbe,0xd3,0xc8,0x81,0xbd,0x6d,0xf1,0x50,0x3d,
0x5b,0x97,0x15,0xbe,0xb4,0xe8,0xa2,0xbd,0x8e,0x1d,0x89,0x3e,
0x83,0xa1,0xbd,0x3d,0x1d,0xf9,0x03,0xbf,0x43,0x8d,0x26,0x3e,
0xbc,0x92,0x90,0xbd,0x5e,0xa1,0x2a,0x3c,0x6f,0xb0,0xbb,0xbd,
0x83,0xd8,0x07,0x3e,0xb9,0xa8,0x27,0x3d,0x8d,0x29,0x94,0x3e,
0x55,0x50,0x1b,0x3d,0xc0,0x59,0x8a,0xbd,0xf4,0x1d,0x1d,0x3d,
0xb3,0x4a,0xda,0x3d,0x3e,0x2e,0x0f,0xbd,0xdc,0x86,0x58,0xbd,
0x99,0x4b,0xb0,0xbd,0x92,0xea,0xf4,0xbe,0x39,0xdb,0x23,0x3e,
0x8a,0x5c,0x66,0xbe,0x4f,0xb0,0xc9,0x3d,0x59,0x49,0x34,0x3e,
0x53,0x2e,0x2c,0x3e,0xbd,0x96,0x6c,0xbe,0x58,0xf8,0x42,0x3e,
0x30,0x1b,0x33,0x3e,0xd7,0x4c,0xd7,0x3e,0xbb,0x2c,0x6d,0xbe,
0x7f,0x53,0x19,0xbe,0x59,0x95,0x6e,0x3d,0xdb,0x0e,0x8f,0xbd,
0xa6,0x2a,0xb1,0x3c,0x47,0x40,0xcc,0x3e,0xfa,0x15,0x85,0xbe,
0xd0,0x55,0xe7,0x3a,0xbc,0x7f,0x58,0x3e,0xb8,0xb6,0xf8,0xbb,
0x49,0x3e,0x11,0x3e,0xea,0xba,0x77,0x3e,0x1d,0xc8,0x4a,0xbe,
0x0a,0xfe,0xc2,0xbc,0x74,0x2b,0x9a,0x3e,0x65,0xa1,0x2b,0xbd,
0x8e,0x28,0xd7,0x3d,0xff,0xf8,0x1e,0x3e,0x8e,0x7d,0x73,0xbe,
0x31,0x61,0xf9,0x3c,0xf1,0x2b,0x96,0x3d,0xcf,0xcc,0x61,0xbe,
0xe8,0x80,0x10,0xbe,0xc3,0x1c,0x2e,0x3e,0x2a,0xdc,0x6c,0xbe,
0x67,0x44,0x61,0x3d,0xc1,0x80,0x7f,0x3e,0xe1,0xe1,0x6f,0xbb,
0x58,0xf4,0x8e,0xbd,0x49,0x51,0x68,0x3e,0xf9,0xd9,0x94,0xbe,
0xc2,0x06,0xb2,0x3d,0xef,0xd7,0xe4,0xbd,0x5d,0x1f,0x82,0x3d,
0x1f,0xd3,0xbe,0x3c,0x12,0x7e,0x62,0x3e,0x68,0xc0,0x27,0xbe,
0x59,0xbe,0x0d,0xbd,0xa7,0x48,0x8c,0x3d,0xd2,0xda,0x95,0x3d,
0x3c,0x46,0x87,0xbd,0xfe,0x5e,0x9d,0x3e,0xea,0xe5,0x38,0xbe,
0x6c,0x8a,0xdf,0xbd,0xd4,0xcf,0x2b,0x3d,0x8c,0x50,0x1c,0x3d,
0xd8,0x73,0xe1,0x3d,0x39,0x60,0x8e,0x3e,0xc8,0x52,0x23,0x3e,
0xc8,0xe4,0x20,0x3c,0xdc,0x3f,0x8e,0x3e,0x41,0xf0,0x90,0xbe,
0x52,0x2e,0x6e,0x3e,0x65,0x54,0x31,0x3d,0x97,0xe0,0xcf,0x3e,
0xf2,0xc7,0x94,0x3d,0x27,0xc3,0x6e,0xbe,0x35,0x2d,0x66,0x3e,
0xbc,0xb9,0x30,0x3e,0xab,0x26,0xd4,0xbe,0x47,0xa7,0x11,0x3e,
0xe8,0x98,0x25,0x3d,0x96,0xb4,0x9f,0xbe,0x37,0x14,0xfd,0x3d,
0xbf,0x35,0x42,0x3e,0x7f,0x59,0x2c,0xbe,0x5f,0x87,0x54,0x3e,
0x10,0x59,0x0c,0x3e,0x07,0xf0,0x64,0xbe,0x5c,0xf5,0x50,0x3e,
0x24,0x67,0x93,0x3d,0x72,0x42,0xcb,0xbe,0xd5,0xfa,0xa2,0x3d,
0x3e,0x9c,0x36,0x3e,0x00,0x79,0xad,0xbe,0xed,0xca,0x30,0x3d,
0xea,0x03,0x97,0x3d,0x1e,0x35,0x9d,0xbd,0xdd,0xfa,0x8e,0x3e,
0x0b,0x56,0x9b,0xbd,0x14,0x1d,0x9e,0xbe,0xfe,0x22,0x28,0xbe,
0xc9,0xcd,0x81,0x3d,0x70,0xa5,0xd9,0xbc,0x0a,0x44,0x2a,0x3d,
0xec,0x1f,0x5c,0xbd,0x01,0x94,0x4b,0xbe,0x28,0xbc,0x65,0x3e,
0x6c,0x9e,0xe2,0x3d,0xaf,0x2b,0x77,0x3c,0x10,0xd4,0x5d,0x3e,
0xc3,0xb9,0x4f,0xbe,0x0d,0x13,0x71,0x3d,0x0d,0xbb,0x86,0x3e,
0xaf,0xc5,0x65,0xbe,0xfb,0x9a,0x65,0xbe,0x21,0x42,0x6a,0x3e,
0x09,0x73,0xc5,0xbd,0x17,0x6e,0x0a,0x3e,0xfc,0x75,0x96,0x3d,
0xfe,0x60,0x06,0x3e,0xfd,0xe7,0x56,0xbe,0x46,0x6c,0x82,0x3e,
0xa3,0x4f,0x1b,0xbe,0xe4,0x42,0x41,0xbe,0xdb,0xab,0xaa,0x3d,
0x5a,0x05,0x7a,0xbe,0xff,0xe0,0xb9,0xbd,0xa6,0x47,0x56,0xbd,
0x5b,0x6d,0x61,0x3e,0xba,0x40,0x07,0x3b,0x35,0xfa,0xa1,0x3e,
0x43,0xf8,0x6e,0x3d,0x92,0x72,0xbf,0xbe,0x45,0x35,0xb1,0x3e,
0x90,0x47,0x8b,0x3e,0x4a,0x1a,0x44,0xbd,0x60,0x2d,0x50,0x3e,
0x7a,0xbd,0x5f,0x3d,0xe4,0x43,0x7c,0x3d,0x53,0x77,0xc7,0x3c,
0xbe,0xde,0x8f,0xbe,0xa3,0x6b,0xa9,0x3d,0xc9,0x0f,0x4d,0xbc,
0x82,0xce,0x31,0xbe,0x9b,0xb0,0x27,0xbe,0x72,0xf3,0x12,0xbe,
0xfd,0x5f,0x0e,0x3d,0x9c,0xc7,0x6b,0xbe,0x38,0x63,0x4d,0x3d,
0xe8,0x9c,0x91,0x3e,0x39,0x26,0x11,0xbe,0x1b,0xd2,0x33,0x3e,
0x25,0x8c,0x98,0xbe,0x15,0x12,0xb1,0x3d,0xd5,0x1a,0xc4,0xbe,
0xc6,0x1b,0x06,0xbe,0xd5,0xa1,0x35,0x3d,0x54,0x2f,0x0a,0xbd,
0xde,0x7b,0x95,0x3d,0x52,0xec,0x27,0x3e,0x74,0xda,0x11,0xbb,
0x95,0x82,0xe7,0x3d,0xa0,0x22,0x0b,0xbe,0xfa,0xac,0xa1,0x3e,
0x37,0x32,0xc4,0x3e,0xb0,0x62,0x92,0x3e,0x2c,0x05,0x05,0xbd,
0x03,0xff,0xb9,0x3d,0x60,0x25,0x6d,0xbe,0xdf,0xfb,0x0e,0xbd,
0x17,0xcf,0x3c,0x3c,0x91,0x26,0x47,0x3e,0x97,0x84,0x94,0xbe,
0xf7,0x45,0xd9,0xbd,0x4d,0x6b,0x20,0xbe,0xd8,0x54,0x0e,0x3e,
0x42,0x31,0x67,0x3d,0x93,0x25,0xde,0x3d,0x7a,0x41,0xc7,0xbd,
0x52,0x3e,0x3b,0x3e,0xf6,0xfe,0x30,0xbd,0x9b,0x69,0x6c,0xbd,
0x88,0xca,0x34,0x3d,0xac,0xea,0xa1,0x3d,0xf7,0xb2,0x84,0xbe,
0x88,0x2d,0xb7,0xbd,0x56,0xca,0xd0,0xbe,0x75,0x30,0x3d,0x3e,
0x87,0x43,0x88,0x3d,0x78,0x0e,0x54,0x3e,0x6f,0x43,0x45,0xbe,
0x71,0xa2,0x9a,0x3e,0x8f,0xd2,0xaf,0x3d,0x3e,0x34,0xf5,0x3d,
0xf1,0xa5,0x06,0x3e,0x69,0xe4,0xe7,0x3d,0x75,0xef,0xcf,0xbd,
0xda,0x66,0x6b,0x3e,0xc1,0x9e,0xd7,0xbd,0xe0,0xcd,0xf6,0x3d,
0x61,0x58,0x8a,0x3e,0x68,0x36,0x74,0xbe,0xbc,0x33,0x36,0xbe,
0x72,0x19,0x7d,0xbe,0x3e,0xa8,0xf4,0xbd,0x3c,0xd8,0xb9,0xbd,
0xfb,0x94,0x62,0xbe,0xb3,0x6b,0x93,0x3e,0x18,0x33,0xac,0x3d,
0x23,0x8f,0xc2,0xbe,0x8a,0x34,0xdd,0x3d,0x54,0xd0,0x60,0xbd,
0x1f,0x49,0x71,0x3e,0xee,0x6d,0x1b,0x3c,0x97,0xfc,0xe0,0xbe,
0x13,0x4a,0x6c,0xbe,0xe8,0x72,0x31,0xbe,0x3e,0xf5,0xc8,0xbe,
0xb4,0xa3,0x19,0x3e,0xd4,0x53,0xab,0x3e,0x4b,0xc4,0xe0,0xbd,
0xd0,0xcf,0x8f,0xbb,0xd9,0xf5,0x5b,0x3d,0xa5,0xab,0x28,0x3e,
0x7a,0x20,0x11,0x3e,0x69,0x66,0xd1,0x3c,0x50,0x51,0xed,0x3d,
0xba,0x9a,0xad,0x3d,0xc2,0x4f,0xf6,0x3d,0x0b,0xa9,0x16,0xbc,
0x49,0xa5,0x1c,0x3d,0x3f,0x7f,0x77,0xbd,0xd6,0x05,0xa6,0x3d,
0x3d,0x80,0x21,0xbe,0xfa,0x24,0x8a,0xbe,0xad,0x3a,0x50,0x3e,
0x50,0x50,0x87,0x3c,0xc0,0x7f,0x36,0xbe,0x17,0x2b,0xcc,0xbd,
0xf8,0xc1,0xe1,0x3d,0x2c,0x3e,0xb2,0xbd,0x72,0xde,0x2f,0x3e,
0xf2,0x3a,0x46,0xbd,0x1b,0x20,0xd1,0x3c,0xbf,0x99,0x01,0x3e,
0x35,0x50,0x3d,0xbe,0x24,0x5a,0x31,0xbe,0x90,0xb8,0x37,0xbe,
0x50,0x39,0x10,0xbe,0x17,0xe1,0xa2,0x3d,0x7b,0xf5,0x37,0xbd,
0xe4,0x2c,0x12,0xbe,0x4e,0xb0,0x5d,0xbd,0x14,0x87,0x83,0xbd,
0xa0,0xe0,0x04,0xbe,0xe3,0x72,0x03,0x3e,0xbc,0x3b,0xb9,0x3d,
0x2d,0x73,0x2f,0x3d,0xca,0x5c,0x02,0xbe,0xb3,0xf5,0x5f,0x3e,
0x8d,0x55,0xd7,0x3d,0xef,0xd8,0x8a,0x3d,0xc4,0x4e,0x22,0xbe,
0x09,0xdf,0x8d,0x3e,0x5f,0x21,0x92,0x3e,0x49,0x2d,0x1f,0x3e,
0xcf,0x7f,0xfa,0xbc,0x47,0x99,0x53,0x3e,0xd6,0xe5,0x0c,0x3e,
0x93,0x23,0x66,0x3d,0x26,0x3e,0x3d,0xbe,0xb7,0x72,0xdd,0xbd,
0x53,0x6b,0x46,0x3e,0x6a,0xfe,0x21,0xbe,0xa3,0x37,0x18,0xbe,
0x47,0x05,0x12,0x3e,0x5f,0x55,0x1b,0x3e,0xda,0x0e,0x75,0xbe,
0x4e,0xa1,0x19,0x3e,0x3e,0x3c,0x68,0xbd,0x9e,0x8e,0x5e,0x3c,
0x5a,0x9b,0x06,0x3e,0xc2,0x78,0x63,0x3e,0x05,0x87,0xe4,0x3d,
0x30,0xad,0xa7,0xbc,0x77,0x32,0x88,0xbd,0xa5,0x42,0xea,0xbd,
0xa6,0x00,0x47,0x3e,0x97,0xa3,0x76,0xbd,0xca,0x98,0x52,0xbd,
0x1a,0xc7,0x49,0x3e,0x33,0x09,0x4d,0xbe,0xbf,0x85,0x20,0xbe,
0x0a,0xc6,0x84,0x3e,0x17,0x9d,0x20,0x3e,0x74,0x7b,0x8b,0x3d,
0x34,0xc4,0xd0,0x3d,0x82,0x74,0xe6,0xbd,0x3e,0x3b,0x8d,0xbd,
0x2e,0x3d,0x26,0xbd,0x8b,0x9a,0xf4,0xbe,0xa9,0x7a,0x6a,0x3d,
0x69,0x3a,0x15,0xbe,0x5b,0xcb,0xbf,0x3d,0x6c,0xf9,0x13,0x3e,
0xd7,0xc0,0x1a,0x3e,0xa8,0x83,0xac,0x3c,0xe7,0x6d,0x0d,0x3e,
0x3a,0x7d,0x53,0xbe,0x08,0xc9,0x0a,0x3e,0x61,0xa7,0x59,0xbd,
0x9c,0xae,0x3b,0xbd,0x5e,0x4b,0xa8,0xbe,0x3a,0x8a,0x36,0x3e,
0xd1,0x03,0x77,0x3d,0xe4,0xb2,0x5c,0x3e,0x6c,0x2e,0xd1,0xbe,
0xf5,0xa0,0x19,0x3e,0xbe,0xf2,0x0d,0xbe,0xc8,0x38,0x63,0x3e,
0x87,0xfc,0xcd,0x3d,0xb9,0x12,0xdf,0x3c,0x56,0x6f,0x72,0x3d,
0x76,0x74,0x9f,0xbe,0xbc,0x7f,0x2b,0xbe,0x91,0x91,0x61,0xbe,
0xc7,0xea,0x24,0xbd,0x51,0xfd,0x22,0x3e,0x63,0xe1,0x11,0xbe,
0xb9,0x3f,0x86,0x3e,0xdf,0x61,0x3e,0x3e,0xd6,0x8c,0xfd,0xbd,
0x06,0xfb,0x83,0xbc,0x17,0x9b,0x49,0x3d,0xd5,0xfe,0x8d,0x3d,
0x70,0x5b,0x39,0x3e,0x17,0x16,0x07,0x3d,0x6e,0x30,0x7d,0xbe,
0x40,0x76,0xce,0xbc,0x75,0xd7,0x07,0xbe,0x39,0x02,0x9a,0x3e,
0xaa,0x64,0x9b,0x3e,0x82,0x1e,0xf2,0x3d,0xde,0xae,0x76,0x3b,
0xde,0x24,0x9b,0xbc,0xea,0x1d,0x98,0xbd,0x21,0xfa,0xa6,0xbe,
0xe4,0x5e,0x16,0x3e,0x1c,0xac,0xb6,0x3d,0x97,0x75,0x79,0xbe,
0x73,0x3b,0x56,0xbd,0xc9,0x1e,0xdc,0xbb,0xfc,0x14,0x12,0xbe,
0x83,0xaa,0x73,0x3e,0xbb,0xe1,0x9b,0x3e,0x0b,0x41,0x59,0xbe,
0x93,0x18,0x2b,0x3c,0x28,0x82,0x93,0x3e,0xe8,0x13,0x5f,0xbe,
0x75,0xf2,0x08,0x3e,0x88,0xee,0x53,0x3e,0x44,0xd4,0xab,0xbe,
0xe9,0xd4,0xec,0x3d,0x2b,0xbd,0x49,0x3e,0xb2,0xd7,0x34,0xbd,
0x0b,0x47,0xc1,0x3d,0xa3,0x84,0x88,0x3e,0xe9,0x72,0x23,0x3d,
0x20,0x33,0x9f,0xbe,0x46,0x9c,0x89,0xbd,0x48,0x9b,0xa7,0xbe,
0x20,0x52,0x40,0x3e,0xf4,0x8d,0x2b,0x3e,0xc4,0xcc,0x99,0x3d,
0x36,0x7b,0x62,0x3d,0xce,0x76,0x38,0xbe,0xb0,0x1f,0xfb,0x3c,
0x45,0x98,0x11,0xbe,0x93,0x4e,0x82,0x3d,0x13,0xe4,0xb8,0xbc,
0xd8,0xda,0xcc,0x3a,0x7d,0x9c,0x0d,0xbe,0xd8,0x13,0x8b,0x3e,
0x7b,0x34,0x96,0x3d,0x5f,0x09,0x11,0xbd,0xa0,0xf4,0x0a,0xbe,
0x21,0xcd,0x4a,0xbe,0x66,0x3a,0x04,0x3e,0x71,0x6c,0xd4,0xbe,
0x2f,0xb9,0xe5,0xbd,0xb2,0x7f,0x4b,0xbd,0xc6,0x9d,0xf3,0xbd,
0x3a,0xf4,0x1a,0xbe,0x32,0xaa,0x39,0x3e,0x63,0x87,0x26,0x3e,
0xcb,0x20,0xbd,0x3e,0x45,0x92,0xa5,0xbe,0x4e,0x0d,0xe2,0x3e,
0xfa,0x05,0x32,0xbc,0x02,0x9a,0xa6,0xbd,0xd6,0x20,0x4e,0x3c,
0xb6,0xb2,0x13,0xbe,0x98,0x06,0x57,0xbe,0x25,0xd1,0xb0,0xbc,
0x08,0x6c,0xe1,0x3d,0x2f,0x87,0x14,0x3e,0xb9,0xec,0x66,0x3e,
0x28,0x9c,0x7a,0x3e,0x8d,0xe8,0xeb,0xbe,0xb8,0x70,0x6a,0x3e,
0xf0,0x1c,0x84,0xbd,0x6b,0xb7,0x98,0xbe,0x8f,0x6b,0x08,0x3d,
0x41,0xe1,0x0f,0x3e,0xda,0x7d,0x33,0xbc,0xfa,0x9b,0x4e,0x3e,
0x72,0xad,0x0b,0xbe,0x5d,0xdf,0x9c,0xbe,0x71,0x23,0xe1,0xbd,
0xd4,0x63,0xb5,0x3d,0x80,0xeb,0xd1,0xbe,0x6f,0xe4,0x39,0x3e,
0xa1,0x4e,0x2c,0xbe,0x4f,0xf4,0x7d,0x3e,0xbd,0x03,0xd5,0xbe,
0x90,0x73,0x6f,0x3e,0xc7,0xb2,0x40,0x3e,0x8a,0xc9,0xa8,0x3d,
0xa5,0x70,0x2a,0xbe,0xb1,0x29,0xee,0xbc,0xfa,0x99,0xa0,0xbe,
0x62,0x26,0xae,0xbd,0xa3,0x20,0x1e,0x3e,0xee,0xfd,0xe0,0xbe,
0x0a,0x4f,0x36,0x3e,0x81,0x20,0xbe,0x3e,0xd2,0x69,0x4c,0x3c,
0x6e,0x36,0x11,0xbe,0xd8,0xe0,0x7e,0x3d,0x69,0x61,0x5f,0xbd,
0x3e,0xbf,0x4e,0x3e,0xc1,0x47,0xa9,0x3e,0x05,0x7d,0x15,0x3e,
0xea,0xb7,0x96,0x3e,0xe9,0x83,0x40,0xbe,0x5a,0x3f,0x80,0x3c,
0xee,0xd2,0x0e,0x3e,0x19,0x92,0x2b,0xbd,0x06,0xe4,0xcf,0xbe,
0x21,0x7c,0x83,0x3e,0xc4,0x6d,0x3c,0x3e,0xa7,0x26,0x25,0x3d,
0x7f,0xd0,0xce,0xbc,0x17,0x7f,0xea,0xbd,0x17,0x13,0x3f,0x3e,
0x31,0xa5,0x58,0x3e,0x36,0x38,0x49,0x3d,0x9b,0x40,0x96,0xbe,
0xe7,0xe8,0x9a,0xbc,0x73,0x89,0xf0,0x3d,0xea,0xc0,0xaf,0xbe,
0x49,0xe5,0x69,0x3e,0x10,0x3d,0x82,0x3e,0x7b,0xfe,0x4c,0xbe,
0xdb,0x4c,0x9c,0xbe,0xad,0xb2,0x98,0xbc,0x41,0xf5,0xd5,0x3b,
0x3a,0xea,0xfc,0xbd,0x6f,0xf4,0x0f,0x3e,0x4b,0x7b,0xca,0x3d,
0x97,0x34,0xf1,0x3d,0xae,0xa0,0x87,0x3e,0xdf,0x3d,0xe6,0xbd,
0x1c,0xf4,0x08,0xbe,0xfa,0x33,0xaa,0xbd,0x81,0x46,0xae,0xbe,
0x52,0x01,0x7e,0x3d,0xaa,0xad,0xa1,0xbd,0xbf,0xf7,0x86,0x3e,
0x8b,0xb1,0x3c,0x3c,0x92,0x31,0x0a,0xbe,0x40,0x68,0xde,0xbd,
0xa9,0x2b,0xa1,0x3d,0x68,0x9b,0x1e,0x3d,0x72,0xb8,0x7a,0xbe,
0xb1,0x46,0x61,0xbe,0x27,0xc8,0x47,0xbe,0xcd,0xd0,0xbb,0x3c,
0xc3,0x23,0x89,0x3e,0x6d,0x72,0x66,0xbe,0x6a,0x90,0x9d,0x3e,
0x97,0xfb,0x7d,0x3e,0x5c,0x52,0x40,0x3e,0x32,0xb2,0xee,0xbd,
0x11,0xe6,0x7c,0xbe,0x73,0x57,0x2e,0xbe,0x28,0x64,0x6b,0x3e,
0x42,0x2a,0x52,0xbe,0x6f,0xd1,0xad,0x3d,0x8b,0x05,0xb7,0x3d,
0x45,0x8b,0x73,0x3e,0x2f,0x48,0xef,0xbe,0xe6,0xd7,0xba,0x3d,
0x15,0xc5,0x23,0x3e,0x95,0x92,0x82,0x3d,0x86,0xf1,0x95,0x3e,
0x15,0xca,0x1f,0xbe,0x90,0x5b,0xac,0xbb,0x48,0x23,0xa3,0xbb,
0x9b,0x36,0xb3,0x3e,0x0c,0xe0,0xff,0xbe,0x49,0xcf,0xd5,0x3e,
0x50,0x1f,0x31,0x3e,0x0b,0x0e,0x91,0xbe,0x30,0xd6,0x85,0x3e,
0x1a,0x80,0x9d,0x3d,0x89,0x9a,0xf6,0xbe,0x19,0xcd,0xba,0x3d,
0x7d,0x95,0x4c,0xbc,0xa4,0x2c,0xd3,0x3d,0x5a,0x66,0x7e,0x3d,
0xc6,0x7c,0x70,0x3c,0xd6,0xe8,0x87,0xbe,0xc5,0x71,0x16,0x3e,
0xff,0x2d,0x68,0x3d,0x3e,0xfd,0xd4,0xbe,0x03,0xcd,0xe4,0x3c,
0xe8,0xfd,0x9c,0xbd,0x2a,0x02,0x46,0xbe,0x40,0x5d,0x15,0xbd,
0xea,0x91,0x30,0x3e,0xff,0xab,0xf2,0x3d,0x3f,0xf8,0x25,0xbe,
0xa1,0xca,0x49,0xbe,0xda,0xe8,0xe5,0xbe,0x48,0xa6,0x36,0x3e,
0x4e,0x11,0xd2,0xbb,0x6c,0x0d,0xce,0xbd,0xfb,0x1f,0xa1,0xbe,
0xda,0x84,0x16,0xbe,0xfe,0x5d,0x6d,0xbe,0x99,0xd5,0xfc,0x3b,
0x0f,0xb8,0x88,0xbe,0x5e,0x61,0xc6,0xbe,0x03,0x43,0xaa,0x3e,
0xfe,0xf2,0x15,0x3d,0x2c,0xac,0xc4,0xbd,0x36,0x0c,0x1b,0x3e,
0xa1,0x37,0x78,0x3d,0xe6,0x20,0xb9,0xbc,0x24,0xce,0x4c,0xbd,
0x68,0xed,0x7b,0xbe,0xe8,0x5a,0x41,0xbe,0x3b,0x24,0x98,0x3e,
0x66,0x46,0xb2,0xbc,0x83,0x70,0x99,0xbd,0x3b,0x0e,0x21,0xbe,
0x21,0x11,0x7a,0x3e,0x4c,0x31,0xd4,0x3c,0x67,0xaa,0xd4,0x3e,
0xc2,0x39,0xe3,0x3d,0xcf,0xb8,0x29,0xbe,0x32,0x6f,0x93,0x3e,
0xf6,0x4b,0xcc,0xbd,0x60,0xb8,0x6a,0xbe,0x1c,0x2e,0x8c,0x3d,
0xbc,0x5e,0xf4,0x3c,0x0d,0xdd,0xc2,0xbd,0x72,0x3e,0x72,0x3e,
0x21,0x65,0x0e,0xbe,0x91,0x41,0x9a,0xbe,0xa8,0x80,0x10,0x3e,
0x50,0x92,0xc0,0xbd,0xfc,0x0b,0xd6,0xbe,0x81,0xf5,0x4f,0x3e,
0xef,0x50,0x8c,0x3d,0xb5,0xe6,0x5e,0xbe,0x46,0xd5,0x8d,0x3e,
0xe4,0x4a,0xfe,0xbd,0x90,0xef,0x97,0xbe,0xb0,0x0d,0x1e,0x3e,
0x61,0x6f,0x9f,0xbd,0x60,0x4d,0x6f,0xbe,0xfc,0xc3,0x81,0x3e,
0x1c,0x48,0x72,0xba,0x2b,0x1d,0xdd,0x3c,0xa4,0xcd,0xf7,0xbd,
0xd4,0x52,0x82,0x3e,0x42,0x53,0xc5,0x3e,0xfe,0xd2,0xb4,0xbd,
0x06,0x7b,0xbf,0x3d,0xe9,0x9a,0x73,0x3e,0xba,0xa2,0x0a,0xbd,
0xc0,0xaa,0xbc,0xbd,0x28,0x2f,0x4c,0x3e,0xb6,0xed,0x65,0xbe,
0xe5,0xcc,0x3b,0xbd,0x46,0xb6,0xaa,0x3e,0x26,0x20,0x40,0xbc,
0x70,0xad,0xb0,0xbd,0x88,0xf2,0xd6,0x3d,0x8a,0xad,0x35,0xbe,
0x22,0xaf,0x81,0xbe,0x69,0x16,0x9e,0xbc,0x63,0x96,0xee,0xbe,
0x0c,0x76,0xa1,0xbd,0xce,0x41,0xd9,0x3e,0x12,0xe6,0x1e,0x3e,
0x20,0x09,0x31,0xbc,0xc5,0xc7,0x89,0x3e,0x38,0x6a,0x29,0xbe,
0x3e,0xf7,0xff,0xff,0x04,0x00,0x00,0x00,0x80,0x07,0x00,0x00,
0x12,0x33,0x41,0x3d,0x4a,0xea,0xc2,0x3d,0x24,0xf4,0x33,0xbe,
0x32,0x79,0xe9,0xbd,0xd1,0x60,0x8f,0x3e,0x91,0x31,0x8f,0x3e,
0x5b,0x5b,0xa4,0x3d,0xaf,0x5b,0x30,0xbe,0x66,0x34,0x27,0xbe,
0x6c,0x88,0x39,0xbe,0x61,0xb2,0x9e,0x3e,0xf1,0xdd,0x37,0x3e,
0x07,0xe6,0xae,0x3d,0x63,0xf7,0xa3,0xbc,0xc2,0x0b,0x81,0xbd,
0xed,0xbf,0x1e,0xbe,0x08,0xd0,0xda,0x3e,0x6d,0xbd,0xd8,0x3c,
0xb5,0x23,0x5e,0xbc,0x09,0x07,0x66,0x3e,0x60,0x52,0x4c,0x3e,
0xf5,0x80,0xa0,0x3e,0x60,0x96,0x09,0x3f,0xed,0xbc,0x8a,0xbd,
0x9f,0xa9,0xe0,0x3e,0x63,0xfa,0x98,0x3e,0x59,0x8d,0x39,0x3e,
0x55,0xab,0xd3,0x3d,0xc5,0x8d,0xf3,0xbc,0x13,0xc9,0x98,0x3c,
0x2b,0xca,0xd6,0xbc,0x25,0x0e,0xcb,0xbc,0xcf,0x49,0xa5,0x3e,
0x87,0xc4,0x34,0xbe,0x4b,0xb8,0x39,0xbe,0xcf,0xfd,0x04,0x3e,
0xee,0x7d,0xc5,0x3e,0xa1,0x6c,0x1f,0xbe,0x80,0xc5,0x5d,0xbe,
0x95,0x80,0x44,0xbe,0x50,0x82,0xc9,0x3e,0x15,0xde,0x55,0xbe,
0xe1,0xb9,0xe9,0xbd,0x70,0xdf,0xd3,0x3e,0x0a,0xa6,0xd4,0x3d,
0xcc,0xfe,0x06,0x3f,0xf8,0xfb,0x27,0x3e,0x3b,0x48,0x8c,0xbe,
0xd9,0x4f,0xb3,0xbd,0x3b,0x5c,0x43,0xbe,0x9a,0x09,0x8f,0x3e,
0xd6,0xe3,0x51,0x3d,0x8d,0xc3,0x1b,0x3d,0x11,0x85,0x38,0x3e,
0x45,0x73,0x9f,0xbe,0xe2,0x54,0x80,0xbc,0x75,0x69,0x4f,0xbe,
0x0a,0xf7,0x5f,0xbb,0x9b,0xb5,0xfa,0xbd,0xb9,0x91,0x94,0x3e,
0x88,0xd9,0x81,0xbd,0x18,0x9c,0x91,0x3c,0x9f,0x2d,0x69,0x3e,
0x13,0x96,0x69,0x3b,0x1c,0x4e,0xa9,0xbe,0xd1,0x3b,0x13,0xbe,
0x7d,0x1b,0x3b,0x3e,0xe9,0x60,0x3c,0xbd,0x81,0x2f,0x95,0x3d,
0xc7,0x4d,0x8f,0xbe,0x2e,0x84,0x8f,0xbe,0x6f,0x45,0x70,0x3e,
0xae,0xbb,0x95,0xbe,0x31,0x74,0x0c,0xbd,0x9c,0x76,0xd6,0x3e,
0xe6,0x82,0xa6,0x3e,0xf7,0x85,0x0d,0xbe,0x72,0x26,0xb8,0xbd,
0xb4,0x93,0xe3,0x3b,0x70,0xaa,0xa4,0xbd,0x06,0x93,0x74,0xbd,
0x97,0x35,0x02,0xbe,0x31,0x98,0xc8,0xbd,0xcf,0x39,0x1f,0xbe,
0x2c,0x7f,0x4a,0xbd,0xe7,0x3d,0x46,0x3e,0x78,0x04,0xbc,0x3e,
0xea,0xc9,0x11,0x3d,0x51,0x1d,0x89,0xbd,0x55,0xb9,0xa5,0x3e,
0x37,0x14,0xb9,0x3d,0x25,0x12,0x43,0x3d,0xa3,0x0b,0xba,0xbd,
0xae,0x05,0x98,0xbe,0x64,0x33,0xbb,0xbe,0xd1,0x4a,0xbb,0x3e,
0xf2,0x02,0x73,0x3e,0x90,0xd6,0x25,0x3d,0x26,0x72,0x85,0xbd,
0x18,0x61,0x86,0x38,0xae,0x25,0x82,0x3e,0x0a,0xb7,0x33,0x3d,
0x59,0x3e,0x0d,0xbd,0x41,0x2f,0x95,0xbd,0x37,0x44,0x21,0x3e,
0x85,0x39,0xbe,0x3c,0xa4,0xb4,0x92,0xbc,0x95,0xf9,0x88,0xbc,
0x88,0x1a,0xd3,0x3d,0xf8,0x99,0xa9,0xbc,0x62,0x85,0xc0,0xbd,
0x8c,0x3c,0x1f,0xbe,0xd5,0x0b,0x9b,0x3e,0x2e,0xa7,0x03,0xbb,
0xc9,0x56,0x98,0xbd,0x82,0x33,0xfa,0x3d,0xc5,0xdc,0x95,0x3e,
0xb5,0x23,0x44,0x3e,0xfb,0x12,0x91,0x3e,0xc6,0x83,0x22,0xbd,
0xa7,0x23,0x25,0x3e,0xb9,0x27,0xd4,0x3d,0x71,0xbb,0x6c,0xbd,
0x52,0xe0,0xa1,0xbd,0x49,0xc2,0x3c,0x3e,0x71,0xa8,0x32,0x3e,
0xfc,0xde,0x0f,0x3e,0xd8,0x53,0x44,0xbb,0x5f,0x6b,0x88,0x3d,
0x49,0xc1,0x04,0xbd,0xb6,0xde,0xb4,0x3c,0x52,0x58,0xa4,0x3c,
0xa3,0xb1,0xad,0x3d,0xf5,0x4a,0xe8,0xbc,0x17,0xc3,0xce,0xbd,
0x1e,0xcd,0xcd,0xbd,0xe3,0x1f,0x4f,0x3e,0x16,0x81,0xc4,0xbd,
0x05,0x36,0x31,0xbd,0x83,0xf4,0xe6,0x3d,0x2a,0x52,0x32,0x3e,
0x75,0xc1,0x19,0x3e,0xba,0xc2,0x78,0x3e,0x21,0x6a,0xb0,0xbd,
0x0d,0xcf,0xbb,0x3e,0xf9,0xef,0x1a,0x3e,0xa3,0xd5,0xde,0xbc,
0xf4,0x3e,0x01,0xbe,0x43,0x85,0xa3,0x3e,0xd5,0x78,0xfa,0x3b,
0xe9,0x7a,0xc8,0x3b,0x59,0xf5,0x92,0xbd,0x6f,0x0c,0x93,0x3e,
0xe8,0x4b,0x89,0xbd,0x71,0x2c,0x87,0xbc,0x47,0x9c,0xec,0xbc,
0x81,0x52,0x42,0x3e,0x70,0xc8,0xb1,0xbd,0x4d,0x4a,0x31,0xbe,
0x77,0x08,0x3c,0xbe,0x18,0x4f,0xfd,0x3e,0x12,0xff,0x20,0xbe,
0xbd,0xa7,0x90,0x3d,0xa9,0xe3,0x0f,0x3e,0x0f,0xab,0xca,0x3e,
0x6a,0xfa,0xc1,0x3e,0xee,0xa4,0x13,0x3f,0x2b,0xc6,0x79,0xbd,
0x18,0x2e,0x00,0x3f,0x11,0x53,0x8d,0x3d,0xe3,0x76,0x9b,0xbe,
0xf7,0xf6,0xe7,0x3b,0xfa,0xde,0xa3,0x3e,0xb1,0x46,0x0f,0xbe,
0x36,0x87,0x65,0x3e,0xfe,0x00,0x2d,0xbe,0x8a,0x4d,0x8f,0xbe,
0x78,0xc5,0x1e,0xbe,0x89,0xee,0xac,0xbc,0x89,0xa7,0x0e,0x3e,
0xeb,0x2a,0x85,0x3e,0x58,0xa3,0x2e,0x3d,0x0d,0xcb,0x4e,0x3d,
0x3b,0x91,0xcc,0xbe,0xd7,0x2b,0x35,0x3f,0x90,0x44,0x12,0xbe,
0xb2,0x5f,0x89,0xbe,0x88,0xc2,0xd5,0x3e,0x1c,0x9e,0xc3,0x3d,
0x60,0x1b,0x2c,0x3d,0x00,0x8b,0x95,0x3e,0x9e,0xab,0x89,0xbb,
0xe7,0xe6,0x0b,0xbe,0xfe,0xb5,0xa4,0xbe,0x50,0x36,0x2b,0x3e,
0xcf,0xcb,0x38,0xbd,0x71,0x4c,0x15,0x3e,0x53,0x3d,0x8e,0xbe,
0xd1,0x05,0x66,0xbe,0xf8,0xbb,0x75,0x3e,0xf1,0x93,0x36,0xbe,
0x8e,0xb1,0x81,0x3e,0xcf,0x1c,0xcb,0xbd,0x28,0x49,0xb2,0xbc,
0x5f,0x2a,0x09,0xbd,0x4c,0x11,0x1c,0x3e,0xef,0xdd,0xd7,0x3e,
0x90,0xc6,0x82,0x3e,0x1d,0xcd,0xba,0xbd,0xef,0x9c,0xb2,0x3e,
0x19,0x0f,0x3a,0x3e,0xdf,0xd0,0x33,0x3e,0xbf,0xea,0x7d,0xbe,
0x46,0xe6,0x49,0xbe,0x2f,0x39,0x76,0xbd,0x66,0x22,0x03,0x3e,
0xf3,0x1f,0x7e,0xbe,0x5e,0x8c,0x81,0xbe,0x05,0xa4,0xbb,0x3e,
0xf4,0x7e,0x8c,0x3e,0x01,0x59,0xdb,0xbd,0xbf,0xb9,0x99,0xbe,
0x86,0x76,0xd1,0xbd,0xed,0x8f,0x8e,0x3e,0x0c,0x38,0x05,0x3e,
0x64,0x7a,0x3b,0x3e,0x60,0xc3,0x1c,0x3e,0x93,0xcc,0x82,0x3e,
0x75,0x9b,0xf1,0xbd,0x01,0x7d,0xdf,0xba,0xeb,0x6b,0xcd,0x3e,
0x11,0x50,0xe8,0xbd,0x19,0x51,0x75,0xbe,0xcd,0x4a,0x23,0x3e,
0x0f,0x93,0x24,0x3e,0xf8,0x0e,0x9c,0xbd,0x29,0x53,0xc6,0xbe,
0x4b,0xed,0xe5,0xbe,0xa7,0x21,0xc2,0xbe,0x19,0x21,0x7c,0x3e,
0x43,0x65,0x8a,0x3e,0x9c,0x4c,0xdb,0xbd,0xa6,0x37,0x87,0xbe,
0x15,0xc4,0x3e,0x3e,0x26,0x87,0xca,0x3e,0x27,0x56,0x26,0x3d,
0xc0,0xe7,0x7b,0x3d,0xd4,0xff,0xd8,0x3c,0xd3,0xe7,0xa9,0x3d,
0x1a,0x90,0x36,0x3e,0xd3,0x0d,0xf7,0xbd,0xcb,0xfb,0x73,0x3d,
0xa7,0xbb,0x34,0x3e,0xf9,0x76,0x9b,0xbe,0x9e,0xb8,0x59,0x3d,
0xab,0xa2,0x0a,0xbd,0x77,0x79,0xc1,0x3d,0x51,0xb1,0x6e,0x3c,
0x7d,0x46,0x0e,0xbe,0xc1,0x18,0x42,0xbe,0x7e,0x65,0xe5,0x3e,
0x49,0x7e,0xb0,0x3e,0x87,0x23,0x5c,0x3e,0x6b,0x42,0xc7,0xbe,
0x12,0x77,0xdc,0x3e,0xf1,0xea,0xcc,0x3b,0x7a,0xd0,0x17,0xbc,
0x2c,0x92,0xc0,0x3d,0xfa,0xa4,0xd9,0x3e,0x12,0xf3,0x92,0x3e,
0x78,0xbd,0x94,0x3e,0x7c,0xe8,0xdf,0xbb,0x16,0xdd,0x8f,0x3d,
0x82,0x69,0x38,0xbe,0x95,0x99,0xb4,0x3d,0x00,0x69,0xf1,0xbd,
0xa0,0x47,0x34,0x3d,0xf5,0x7b,0x69,0xbe,0x0f,0x9c,0xb5,0xbd,
0x40,0xb8,0x9b,0xbe,0x60,0x57,0xb8,0x3d,0x85,0x6e,0x3e,0xbe,
0x00,0xe1,0x33,0xbe,0xd2,0x12,0x86,0x3c,0x2b,0x0b,0x9b,0x3e,
0x2e,0x36,0xcc,0x3e,0x7f,0x47,0x2d,0x3e,0x5a,0x7e,0x7d,0xbe,
0x93,0x41,0x32,0xbe,0xb4,0x1a,0xb4,0xbe,0xa2,0x26,0x9e,0x3e,
0xe9,0xe7,0xbb,0x3d,0x6b,0xf9,0xcc,0xbd,0x7f,0x1b,0xa6,0xbc,
0x86,0x7e,0x5a,0xbc,0x49,0x34,0x41,0x3e,0xf5,0x02,0x73,0xbd,
0x4e,0x9d,0x2d,0x3e,0x82,0x98,0xaa,0x3d,0x8e,0xc5,0x98,0x3e,
0x22,0x49,0xf0,0xbc,0x72,0x9e,0x7d,0x3e,0x98,0x16,0xb2,0x3e,
0xcd,0x85,0x0c,0x3e,0x4d,0x9c,0xa9,0xbe,0x55,0x78,0x63,0x3d,
0x4b,0x39,0xe5,0x3d,0x06,0x41,0x3d,0xbd,0x2e,0x99,0x0c,0xbe,
0xee,0xdf,0xa3,0xbe,0x7d,0xdc,0xff,0xbe,0x20,0x2e,0xbe,0x3e,
0x1b,0xcf,0x01,0x3e,0x6d,0x14,0xcc,0x3c,0x3b,0x13,0xe5,0xbd,
0x31,0x2e,0xf2,0xbd,0xb2,0x4d,0x9d,0xbd,0x68,0x5c,0x2e,0x3e,
0xed,0xf0,0x21,0xbe,0xcb,0xb5,0x69,0xbd,0x7e,0x63,0x26,0xbe,
0x33,0x1a,0x43,0x3e,0x29,0x2a,0x0f,0xbe,0xb1,0x6d,0x44,0xbd,
0x01,0x9e,0x30,0xbe,0xf6,0x1a,0x41,0xbd,0x8c,0x86,0x87,0xbd,
0x45,0xe1,0xb1,0x3d,0xa6,0xb8,0xc6,0xbd,0x0c,0x22,0x64,0xbd,
0x4a,0xf2,0xaf,0xbd,0xdb,0xb4,0x58,0x3e,0xd8,0xe5,0xb0,0xbc,
0x7e,0x26,0x8a,0xbb,0xbf,0x3a,0xd4,0x3d,0x7f,0xb4,0xdf,0xbd,
0xf5,0x99,0x81,0x3e,0xcb,0x65,0x4e,0x3e,0x26,0x84,0x78,0x3d,
0xd1,0x54,0x51,0xbd,0x8d,0x82,0x92,0x3e,0x96,0xe6,0xa3,0xbd,
0xa5,0xda,0x78,0x3d,0xc6,0x7a,0x78,0x3d,0x33,0x6a,0x42,0x3e,
0x22,0xd9,0x53,0xbe,0x6c,0x9b,0x83,0xbc,0x6b,0x86,0x8e,0xbd,
0xf5,0x4d,0x90,0x3e,0x0d,0x38,0x56,0xbe,0xb4,0xdf,0x28,0xbe,
0xe0,0x7e,0x11,0xbd,0x78,0xab,0xcc,0x3e,0xb3,0xab,0x33,0x3c,
0xcf,0xff,0x6b,0xbe,0xec,0xc6,0x9d,0x3d,0x6a,0x27,0x8c,0x3e,
0x44,0xe1,0x01,0x3f,0x7f,0xe7,0x4b,0x3e,0xb5,0xd2,0x41,0xbe,
0xaa,0xc3,0x89,0x3e,0x7c,0x8f,0x7a,0x3e,0xb7,0x0c,0x02,0xbe,
0x71,0x0f,0xf6,0xbd,0x69,0x06,0x0a,0x3e,0x04,0x1a,0x7f,0x3e,
0x37,0xa3,0x2b,0x3e,0x46,0xc4,0x9c,0xbd,0x5b,0x53,0x7f,0xbd,
0x1b,0xa1,0x52,0x3c,0x56,0x26,0xd0,0x3a,0x2a,0xd2,0xa0,0x3d,
0x0d,0x91,0x60,0x3e,0xd1,0xf8,0xa5,0x3c,0x6b,0x5d,0xe6,0xbd,
0xbe,0xa7,0x33,0xbe,0x80,0xd7,0xd4,0x3e,0x7b,0x10,0xce,0xbd,
0x4a,0xdb,0xdc,0xbd,0xcb,0xf3,0x8f,0x3e,0xa4,0xd5,0x98,0x3e,
0x9e,0x13,0xb2,0x3e,0xa0,0x27,0xf3,0x3e,0xab,0xb4,0x39,0xbe,
0xfe,0x55,0x62,0xbe,0xc1,0x97,0x8a,0xbd,0xa1,0xd2,0x1e,0x3e,
0xda,0x2c,0x28,0x3e,0xad,0xb2,0xbd,0xbd,0x3b,0xb4,0x0d,0xbe,
0x03,0xb0,0xc3,0xbd,0x83,0x5b,0xac,0x3d,0xf7,0xe1,0x1a,0x3d,
0xdc,0x00,0xef,0x3d,0xd4,0x0a,0x5b,0xbb,0x23,0x90,0xa7,0x3d,
0x6a,0xde,0xba,0xbc,0xe7,0x61,0xef,0xbc,0x42,0x99,0xc0,0x3e,
0x0f,0x12,0x22,0x3e,0xf5,0x8a,0x45,0xbe,0x16,0x44,0xc5,0x3e,
0x27,0xfd,0x2a,0x3e,0x26,0x0f,0x77,0xbd,0x0c,0x6b,0xac,0xbe,
0xba,0x11,0x91,0xbe,0x28,0xeb,0x86,0xbd,0x16,0x00,0x9f,0x3d,
0xf1,0x50,0x95,0x3e,0x77,0x5c,0x78,0x3e,0xc3,0x6a,0x19,0xbe,
0x99,0x5c,0x34,0xbd,0xd8,0x26,0x79,0x3e,0xfe,0xd4,0xa9,0x3e,
0x89,0x25,0x6c,0x3e,0x90,0x3f,0x1f,0x3e,0x44,0xfc,0x30,0xbe,
0x2e,0x84,0xf8,0xbd,0xc0,0xaf,0x5e,0x3e,0x29,0x37,0x1c,0xbd,
0x6f,0x3f,0xaf,0x3d,0x6f,0x12,0x11,0x3e,0x6f,0x27,0x13,0xbe,
0x1f,0x99,0x74,0xbe,0xe3,0x62,0x14,0x3f,0x1d,0xca,0xb6,0xbe,
0xec,0x5a,0xa2,0xbd,0x03,0xce,0xc0,0x3e,0xe2,0xaf,0x0f,0x3d,
0xfa,0xcd,0xdf,0x3e,0xc4,0xc0,0xea,0x3e,0x7a,0x0b,0xa7,0xbe,
0x0c,0x70,0xcf,0x3c,0x32,0x4a,0x3d,0xbd,0xc9,0x0e,0xb8,0xbc,
0xa4,0xb6,0xc9,0xbd,0x5b,0x50,0x54,0xbd,0x5e,0xd0,0x1f,0xbd,
0xfe,0x80,0x39,0x3d,0x06,0x22,0xa2,0xbd,0x1a,0x00,0x34,0x3d,
0xad,0xd9,0x5d,0xbd,0xd5,0x81,0xea,0x3c,0x8b,0xcf,0x80,0x3c,
0xe3,0xe2,0x82,0x3d,0x96,0x71,0x0d,0xbc,0xaf,0x9a,0x5a,0xbc,
0x25,0xa7,0xe9,0xbc,0xca,0x7b,0x38,0x3d,0x8c,0xf8,0x2e,0x3d,
0xc5,0x9c,0xe4,0xbb,0xa9,0xd8,0xea,0x3d,0xf0,0x66,0x86,0x3c,
0xdb,0xf8,0x86,0x3c,0x70,0xdf,0xa3,0x3d,0xe7,0x3d,0xec,0x3d,
0x38,0x2d,0xca,0xbe,0x0a,0xc9,0xcf,0x3d,0x12,0xe1,0x8d,0x3e,
0x01,0x5d,0xd4,0x3e,0xe6,0x06,0xad,0xbe,0xeb,0x93,0xbf,0x3d,
0xcf,0x01,0xc9,0x3a,0xa0,0xe1,0x82,0x3e,0x37,0x6a,0xdb,0xbd,
0x57,0xe7,0x91,0x3d,0x85,0xf0,0x50,0xbd,0xf2,0xaf,0x99,0x3e,
0xc5,0x53,0x07,0x3a,0xf4,0x0f,0xa0,0xbe,0x12,0x40,0x38,0x3e,
0x3c,0xdb,0x97,0xbd,0x9d,0x48,0xa8,0xbe,0xb5,0x1f,0x96,0x3e,
0x33,0x9d,0x2a,0x3e,0xe0,0x7b,0x99,0x3d,0xcd,0xc8,0x48,0xbe,
0x5a,0xac,0x66,0xbe,0xda,0x2a,0x8c,0xbc,0x71,0x27,0x8a,0x3e,
0xca,0xfe,0xff,0xff,0x04,0x00,0x00,0x00,0xa0,0x00,0x00,0x00,
0xd1,0x84,0xca,0xbe,0x37,0x0a,0x1d,0xbf,0x91,0x44,0xfd,0x3e,
0xe2,0x75,0x2b,0x3f,0x22,0x99,0x07,0xbe,0xe0,0x60,0x15,0x3e,
0x13,0x69,0x45,0xbf,0x63,0x14,0x54,0xbf,0x3e,0xa5,0x1c,0x3f,
0xea,0x69,0x63,0x3f,0xb6,0x28,0x76,0xbe,0x66,0x57,0x0c,0xbf,
0x62,0xc6,0x87,0x3e,0xc9,0x92,0x2f,0x3e,0x54,0x5d,0x09,0xbf,
0xe9,0x5a,0x9f,0xbe,0x15,0x2e,0xb1,0x3e,0x6e,0xcd,0xab,0xbe,
0x80,0xe7,0x54,0x3e,0x49,0xb7,0x36,0x3e,0x85,0x9c,0xf8,0x3e,
0x08,0x29,0xa3,0x3e,0x1e,0x46,0x23,0xbf,0xff,0xfc,0x9e,0xbe,
0xe4,0xc5,0xb5,0x3e,0xfd,0xef,0xc5,0x3e,0x17,0x33,0xa2,0x3c,
0x71,0xd9,0xf4,0x3e,0x83,0x46,0x15,0xbf,0xb7,0x83,0x43,0xbf,
0xb4,0x55,0x16,0x3f,0x1d,0x8f,0xf4,0x3e,0x56,0xa8,0xe7,0xbe,
0x95,0x17,0xbe,0xbd,0xd0,0xc0,0x8d,0x3e,0xe5,0x9a,0x5b,0x3e,
0x25,0x52,0x19,0xbf,0x1d,0x62,0x19,0x3f,0x11,0x71,0x87,0x3e,
0x50,0x77,0xf5,0xbe,0xd4,0xf9,0xff,0xff,0xd8,0xf9,0xff,0xff,
0x0f,0x00,0x00,0x00,0x4d,0x4c,0x49,0x52,0x20,0x43,0x6f,0x6e,
0x76,0x65,0x72,0x74,0x65,0x64,0x2e,0x00,0x01,0x00,0x00,0x00,
0x14,0x00,0x00,0x00,0x00,0x00,0x0e,0x00,0x18,0x00,0x14,0x00,
0x10,0x00,0x0c,0x00,0x08,0x00,0x04,0x00,0x0e,0x00,0x00,0x00,
0x14,0x00,0x00,0x00,0x1c,0x00,0x00,0x00,0x50,0x01,0x00,0x00,
0x54,0x01,0x00,0x00,0x58,0x01,0x00,0x00,0x04,0x00,0x00,0x00,
0x6d,0x61,0x69,0x6e,0x00,0x00,0x00,0x00,0x05,0x00,0x00,0x00,
0x14,0x01,0x00,0x00,0xc4,0x00,0x00,0x00,0x78,0x00,0x00,0x00,
0x40,0x00,0x00,0x00,0x04,0x00,0x00,0x00,0x5a,0xff,0xff,0xff,
0x1c,0x00,0x00,0x00,0x00,0x00,0x00,0x09,0x1c,0x00,0x00,0x00,
0x20,0x00,0x00,0x00,0x02,0x00,0x00,0x00,0x00,0x00,0x06,0x00,
0x08,0x00,0x04,0x00,0x06,0x00,0x00,0x00,0x00,0x00,0x80,0x3f,
0x01,0x00,0x00,0x00,0x0c,0x00,0x00,0x00,0x01,0x00,0x00,0x00,
0x0b,0x00,0x00,0x00,0x92,0xff,0xff,0xff,0x14,0x00,0x00,0x00,
0x00,0x00,0x00,0x08,0x10,0x00,0x00,0x00,0x14,0x00,0x00,0x00,
0x01,0x00,0x00,0x00,0x94,0xfa,0xff,0xff,0x01,0x00,0x00,0x00,
0x0b,0x00,0x00,0x00,0x03,0x00,0x00,0x00,0x0a,0x00,0x00,0x00,
0x01,0x00,0x00,0x00,0x04,0x00,0x00,0x00,0xc6,0xff,0xff,0xff,
0x14,0x00,0x00,0x00,0x00,0x00,0x00,0x08,0x14,0x00,0x00,0x00,
0x18,0x00,0x00,0x00,0x01,0x00,0x00,0x00,0xb6,0xff,0xff,0xff,
0x00,0x00,0x00,0x01,0x01,0x00,0x00,0x00,0x0a,0x00,0x00,0x00,
0x03,0x00,0x00,0x00,0x09,0x00,0x00,0x00,0x02,0x00,0x00,0x00,
0x06,0x00,0x00,0x00,0x00,0x00,0x0e,0x00,0x1a,0x00,0x14,0x00,
0x10,0x00,0x0c,0x00,0x0b,0x00,0x04,0x00,0x0e,0x00,0x00,0x00,
0x1c,0x00,0x00,0x00,0x00,0x00,0x00,0x08,0x1c,0x00,0x00,0x00,
0x20,0x00,0x00,0x00,0x01,0x00,0x00,0x00,0x00,0x00,0x06,0x00,
0x08,0x00,0x07,0x00,0x06,0x00,0x00,0x00,0x00,0x00,0x00,0x01,
0x01,0x00,0x00,0x00,0x09,0x00,0x00,0x00,0x03,0x00,0x00,0x00,
0x08,0x00,0x00,0x00,0x03,0x00,0x00,0x00,0x05,0x00,0x00,0x00,
0x00,0x00,0x0a,0x00,0x0c,0x00,0x00,0x00,0x08,0x00,0x04,0x00,
0x0a,0x00,0x00,0x00,0x08,0x00,0x00,0x00,0x0c,0x00,0x00,0x00,
0x01,0x00,0x00,0x00,0x08,0x00,0x00,0x00,0x02,0x00,0x00,0x00,
0x00,0x00,0x00,0x00,0x07,0x00,0x00,0x00,0x01,0x00,0x00,0x00,
0x0c,0x00,0x00,0x00,0x01,0x00,0x00,0x00,0x00,0x00,0x00,0x00,
0x0d,0x00,0x00,0x00,0x60,0x04,0x00,0x00,0x08,0x04,0x00,0x00,
0xb0,0x03,0x00,0x00,0x70,0x03,0x00,0x00,0x34,0x03,0x00,0x00,
0xf8,0x02,0x00,0x00,0xbc,0x02,0x00,0x00,0x7c,0x02,0x00,0x00,
0x04,0x02,0x00,0x00,0x74,0x01,0x00,0x00,0xdc,0x00,0x00,0x00,
0x60,0x00,0x00,0x00,0x04,0x00,0x00,0x00,0xea,0xfb,0xff,0xff,
0x00,0x00,0x00,0x01,0x14,0x00,0x00,0x00,0x1c,0x00,0x00,0x00,
0x1c,0x00,0x00,0x00,0x0d,0x00,0x00,0x00,0x34,0x00,0x00,0x00,
0x02,0x00,0x00,0x00,0xff,0xff,0xff,0xff,0x02,0x00,0x00,0x00,
0xd4,0xfb,0xff,0xff,0x1b,0x00,0x00,0x00,0x53,0x74,0x61,0x74,
0x65,0x66,0x75,0x6c,0x50,0x61,0x72,0x74,0x69,0x74,0x69,0x6f,
0x6e,0x65,0x64,0x43,0x61,0x6c,0x6c,0x5f,0x31,0x3a,0x30,0x00,
0x02,0x00,0x00,0x00,0x01,0x00,0x00,0x00,0x02,0x00,0x00,0x00,
0x42,0xfc,0xff,0xff,0x00,0x00,0x00,0x01,0x14,0x00,0x00,0x00,
0x1c,0x00,0x00,0x00,0x1c,0x00,0x00,0x00,0x0c,0x00,0x00,0x00,
0x54,0x00,0x00,0x00,0x02,0x00,0x00,0x00,0xff,0xff,0xff,0xff,
0x02,0x00,0x00,0x00,0x2c,0xfc,0xff,0xff,0x38,0x00,0x00,0x00,
0x73,0x65,0x71,0x75,0x65,0x6e,0x74,0x69,0x61,0x6c,0x5f,0x31,
0x2f,0x64,0x65,0x6e,0x73,0x65,0x5f,0x32,0x5f,0x31,0x2f,0x4d,
0x61,0x74,0x4d,0x75,0x6c,0x3b,0x73,0x65,0x71,0x75,0x65,0x6e,
0x74,0x69,0x61,0x6c,0x5f,0x31,0x2f,0x64,0x65,0x6e,0x73,0x65,
0x5f,0x32,0x5f,0x31,0x2f,0x41,0x64,0x64,0x00,0x00,0x00,0x00,
0x02,0x00,0x00,0x00,0x01,0x00,0x00,0x00,0x02,0x00,0x00,0x00,
0xba,0xfc,0xff,0xff,0x00,0x00,0x00,0x01,0x14,0x00,0x00,0x00,
0x1c,0x00,0x00,0x00,0x1c,0x00,0x00,0x00,0x0b,0x00,0x00,0x00,
0x70,0x00,0x00,0x00,0x02,0x00,0x00,0x00,0xff,0xff,0xff,0xff,
0x14,0x00,0x00,0x00,0xa4,0xfc,0xff,0xff,0x54,0x00,0x00,0x00,
0x73,0x65,0x71,0x75,0x65,0x6e,0x74,0x69,0x61,0x6c,0x5f,0x31,
0x2f,0x64,0x65,0x6e,0x73,0x65,0x5f,0x31,0x5f,0x32,0x2f,0x4d,
0x61,0x74,0x4d,0x75,0x6c,0x3b,0x73,0x65,0x71,0x75,0x65,0x6e,
0x74,0x69,0x61,0x6c,0x5f,0x31,0x2f,0x64,0x65,0x6e,0x73,0x65,
0x5f,0x31,0x5f,0x32,0x2f,0x52,0x65,0x6c,0x75,0x3b,0x73,0x65,
0x71,0x75,0x65,0x6e,0x74,0x69,0x61,0x6c,0x5f,0x31,0x2f,0x64,
0x65,0x6e,0x73,0x65,0x5f,0x31,0x5f,0x32,0x2f,0x41,0x64,0x64,
0x00,0x00,0x00,0x00,0x02,0x00,0x00,0x00,0x01,0x00,0x00,0x00,
0x14,0x00,0x00,0x00,0x4e,0xfd,0xff,0xff,0x00,0x00,0x00,0x01,
0x14,0x00,0x00,0x00,0x1c,0x00,0x00,0x00,0x1c,0x00,0x00,0x00,
0x0a,0x00,0x00,0x00,0x68,0x00,0x00,0x00,0x02,0x00,0x00,0x00,
0xff,0xff,0xff,0xff,0x18,0x00,0x00,0x00,0x38,0xfd,0xff,0xff,
0x4e,0x00,0x00,0x00,0x73,0x65,0x71,0x75,0x65,0x6e,0x74,0x69,
0x61,0x6c,0x5f,0x31,0x2f,0x64,0x65,0x6e,0x73,0x65,0x5f,0x31,
0x2f,0x4d,0x61,0x74,0x4d,0x75,0x6c,0x3b,0x73,0x65,0x71,0x75,
0x65,0x6e,0x74,0x69,0x61,0x6c,0x5f,0x31,0x2f,0x64,0x65,0x6e,
0x73,0x65,0x5f,0x31,0x2f,0x52,0x65,0x6c,0x75,0x3b,0x73,0x65,
0x71,0x75,0x65,0x6e,0x74,0x69,0x61,0x6c,0x5f,0x31,0x2f,0x64,
0x65,0x6e,0x73,0x65,0x5f,0x31,0x2f,0x41,0x64,0x64,0x00,0x00,
0x02,0x00,0x00,0x00,0x01,0x00,0x00,0x00,0x18,0x00,0x00,0x00,
0xda,0xfd,0xff,0xff,0x00,0x00,0x00,0x01,0x14,0x00,0x00,0x00,
0x1c,0x00,0x00,0x00,0x1c,0x00,0x00,0x00,0x09,0x00,0x00,0x00,
0x38,0x00,0x00,0x00,0x02,0x00,0x00,0x00,0xff,0xff,0xff,0xff,
0x1b,0x00,0x00,0x00,0xc4,0xfd,0xff,0xff,0x1e,0x00,0x00,0x00,
0x73,0x65,0x71,0x75,0x65,0x6e,0x74,0x69,0x61,0x6c,0x5f,0x31,
0x2f,0x66,0x6c,0x61,0x74,0x74,0x65,0x6e,0x5f,0x31,0x2f,0x52,
0x65,0x73,0x68,0x61,0x70,0x65,0x00,0x00,0x02,0x00,0x00,0x00,
0x01,0x00,0x00,0x00,0x1b,0x00,0x00,0x00,0x00,0x00,0x16,0x00,
0x1c,0x00,0x18,0x00,0x17,0x00,0x10,0x00,0x0c,0x00,0x08,0x00,
0x00,0x00,0x00,0x00,0x00,0x00,0x07,0x00,0x16,0x00,0x00,0x00,
0x00,0x00,0x00,0x01,0x14,0x00,0x00,0x00,0x14,0x00,0x00,0x00,
0x08,0x00,0x00,0x00,0x00,0x00,0x00,0x02,0x1c,0x00,0x00,0x00,
0x2c,0xfe,0xff,0xff,0x0f,0x00,0x00,0x00,0x61,0x72,0x69,0x74,
0x68,0x2e,0x63,0x6f,0x6e,0x73,0x74,0x61,0x6e,0x74,0x36,0x00,
0x01,0x00,0x00,0x00,0x02,0x00,0x00,0x00,0xde,0xfe,0xff,0xff,
0x00,0x00,0x00,0x01,0x10,0x00,0x00,0x00,0x10,0x00,0x00,0x00,
0x07,0x00,0x00,0x00,0x1c,0x00,0x00,0x00,0x64,0xfe,0xff,0xff,
0x0f,0x00,0x00,0x00,0x61,0x72,0x69,0x74,0x68,0x2e,0x63,0x6f,
0x6e,0x73,0x74,0x61,0x6e,0x74,0x35,0x00,0x01,0x00,0x00,0x00,
0x14,0x00,0x00,0x00,0x16,0xff,0xff,0xff,0x00,0x00,0x00,0x01,
0x10,0x00,0x00,0x00,0x10,0x00,0x00,0x00,0x06,0x00,0x00,0x00,
0x1c,0x00,0x00,0x00,0x9c,0xfe,0xff,0xff,0x0f,0x00,0x00,0x00,
0x61,0x72,0x69,0x74,0x68,0x2e,0x63,0x6f,0x6e,0x73,0x74,0x61,
0x6e,0x74,0x34,0x00,0x01,0x00,0x00,0x00,0x18,0x00,0x00,0x00,
0x4e,0xff,0xff,0xff,0x00,0x00,0x00,0x01,0x10,0x00,0x00,0x00,
0x10,0x00,0x00,0x00,0x05,0x00,0x00,0x00,0x1c,0x00,0x00,0x00,
0xd4,0xfe,0xff,0xff,0x0f,0x00,0x00,0x00,0x61,0x72,0x69,0x74,
0x68,0x2e,0x63,0x6f,0x6e,0x73,0x74,0x61,0x6e,0x74,0x33,0x00,
0x01,0x00,0x00,0x00,0x02,0x00,0x00,0x00,0x86,0xff,0xff,0xff,
0x00,0x00,0x00,0x01,0x10,0x00,0x00,0x00,0x10,0x00,0x00,0x00,
0x04,0x00,0x00,0x00,0x1c,0x00,0x00,0x00,0x0c,0xff,0xff,0xff,
0x0f,0x00,0x00,0x00,0x61,0x72,0x69,0x74,0x68,0x2e,0x63,0x6f,
0x6e,0x73,0x74,0x61,0x6e,0x74,0x32,0x00,0x02,0x00,0x00,0x00,
0x18,0x00,0x00,0x00,0x1b,0x00,0x00,0x00,0xc2,0xff,0xff,0xff,
0x00,0x00,0x00,0x01,0x10,0x00,0x00,0x00,0x10,0x00,0x00,0x00,
0x03,0x00,0x00,0x00,0x1c,0x00,0x00,0x00,0x48,0xff,0xff,0xff,
0x0f,0x00,0x00,0x00,0x61,0x72,0x69,0x74,0x68,0x2e,0x63,0x6f,
0x6e,0x73,0x74,0x61,0x6e,0x74,0x31,0x00,0x02,0x00,0x00,0x00,
0x14,0x00,0x00,0x00,0x18,0x00,0x00,0x00,0x00,0x00,0x16,0x00,
0x18,0x00,0x14,0x00,0x00,0x00,0x10,0x00,0x0c,0x00,0x08,0x00,
0x00,0x00,0x00,0x00,0x00,0x00,0x07,0x00,0x16,0x00,0x00,0x00,
0x00,0x00,0x00,0x01,0x10,0x00,0x00,0x00,0x10,0x00,0x00,0x00,
0x02,0x00,0x00,0x00,0x1c,0x00,0x00,0x00,0x9c,0xff,0xff,0xff,
0x0e,0x00,0x00,0x00,0x61,0x72,0x69,0x74,0x68,0x2e,0x63,0x6f,
0x6e,0x73,0x74,0x61,0x6e,0x74,0x00,0x00,0x02,0x00,0x00,0x00,
0x02,0x00,0x00,0x00,0x14,0x00,0x00,0x00,0x00,0x00,0x16,0x00,
0x1c,0x00,0x18,0x00,0x00,0x00,0x14,0x00,0x10,0x00,0x0c,0x00,
0x00,0x00,0x00,0x00,0x08,0x00,0x07,0x00,0x16,0x00,0x00,0x00,
0x00,0x00,0x00,0x01,0x14,0x00,0x00,0x00,0x20,0x00,0x00,0x00,
0x20,0x00,0x00,0x00,0x01,0x00,0x00,0x00,0x3c,0x00,0x00,0x00,
0x02,0x00,0x00,0x00,0xff,0xff,0xff,0xff,0x1b,0x00,0x00,0x00,
0x04,0x00,0x04,0x00,0x04,0x00,0x00,0x00,0x1e,0x00,0x00,0x00,
0x73,0x65,0x72,0x76,0x69,0x6e,0x67,0x5f,0x64,0x65,0x66,0x61,
0x75,0x6c,0x74,0x5f,0x6b,0x65,0x72,0x61,0x73,0x5f,0x74,0x65,
0x6e,0x73,0x6f,0x72,0x3a,0x30,0x00,0x00,0x02,0x00,0x00,0x00,
0x01,0x00,0x00,0x00,0x1b,0x00,0x00,0x00,0x03,0x00,0x00,0x00,
0x30,0x00,0x00,0x00,0x14,0x00,0x00,0x00,0x04,0x00,0x00,0x00,
0xe8,0xff,0xff,0xff,0x19,0x00,0x00,0x00,0x00,0x00,0x00,0x19,
0xf4,0xff,0xff,0xff,0x09,0x00,0x00,0x00,0x00,0x00,0x00,0x09,
0x0c,0x00,0x0c,0x00,0x0b,0x00,0x00,0x00,0x00,0x00,0x04,0x00,
0x0c,0x00,0x00,0x00,0x16,0x00,0x00,0x00,0x00,0x00,0x00,0x16

};

#endif //TICTACTOE_MODEL_ESP32_H